011
769
7B7
7B1
78B
79B
00D
00B
01A
092
0B0
015
093
00E
645
04B
77E
7FB
03E
01C
054
057
76B
013
771
07D
05D
7B9
780
009
018
7A5
7C4
724
079
090
001
7FE
00B
791
7B2
752
024
68D
0D5
7CA
033
788
025
028
762
10F
02E
7D9
070
050
7A7
7D7
02C
018
645
7D5
6B8
060
0B5
00B
7CD
771
0C8
055
7CE
023
021
019
058
0AA
72C
046
037
716
032
027
08D
672
08D
07B
7D1
784
07B
7FC
78E
7D4
06E
055
006
79E
094
03B
00F
789
790
0F5
07B
7DF
03D
743
793
023
01D
7F6
02A
77E
0A9
722
09E
6EB
7ED
011
7CB
04B
010
7C6
029
052
77C
02A
7A2
7C4
7AD
7DB
05E
7F8
02E
04E
026
014
0A6
79B
767
7A6
0D9
7EA
7FE
7FA
7B6
7D7
01C
7D4
002
752
0E8
041
048
0B2
7E7
7F4
02D
74C
7B1
7F7
7D4
05E
041
0A0
5BB
7B5
6C2
0AB
7C8
75B
7DE
089
033
010
7A1
011
7D5
052
757
7D6
7A6
71A
7E7
020
742
0CC
7B5
06C
7A6
015
785
7BF
71C
754
725
199
094
091
751
6DB
634
06D
78A
7B0
065
06C
6DE
07E
01C
04B
735
6A7
763
7C7
0E8
7E7
784
765
7A5
12F
7F9
74B
79D
7F3
0B4
7EE
71A
048
096
06D
01C
767
0FD
7BA
04A
7DE
76F
06D
7FB
6B1
7DD
055
7C9
7C8
008
01E
77A
715
7AD
7F4
023
6C6
771
7F5
07C
7DD
757
7D4
037
0F1
06C
024
773
7E2
06B
77E
023
7AE
7CD
050
013
045
091
6B7
03A
715
037
12B
787
681
00D
016
7AA
7DD
7F8
016
01E
6D9
002
004
0B3
793
00D
7A0
7A4
7E7
06D
6E0
0B2
7CE
0B3
074
041
016
709
7B3
7F8
7D6
79B
05A
7F8
0C6
0D0
6EC
0A5
6F8
04F
7D9
7C0
756
669
7AB
073
003
0CF
623
179
77C
7E2
043
7AD
141
77D
706
727
7C4
162
6D3
022
05C
7B5
117
7A8
7A2
77D
055
064
70E
03F
7E8
622
7D0
65F
01E
0AD
0CC
057
7F0
7F6
029
052
7C0
155
0CE
738
081
086
7FB
509
762
0CC
778
03F
03D
0CA
7CA
7A9
09A
747
745
000
7E4
07F
08E
746
036
01C
79B
07A
79C
741
7A7
7D0
06C
7CE
791
7A1
040
0AB
7B9
71E
034
0B6
101
00F
064
6BC
1CF
750
65B
0D2
0B4
7E8
02F
67E
7CA
7DE
084
078
780
073
031
7EA
7BB
772
7DB
78B
77A
03B
0A3
7BF
01E
7EA
018
017
7A5
7AC
03F
7F5
01E
6CD
0A8
0C4
0BA
075
119
634
7EA
694
74B
0DD
79F
018
026
006
035
7F5
01A
684
044
079
7F7
7A3
06E
777
057
06E
7A6
009
7DD
0E0
6FE
772
088
7A9
06F
07E
059
02A
7BF
05F
764
7AE
025
7E8
04D
5F4
02C
7AE
7DD
005
7EA
7F4
030
753
7D0
733
012
072
0C9
099
77E
021
79C
7CA
7B7
759
7BC
010
081
7C8
05C
7B8
74E
003
078
032
7FC
016
7D3
0DA
0D3
0F3
7B5
774
780
70B
0AB
7BA
6B6
08C
020
064
023
7CB
7E3
09B
7F4
7DC
02B
7B6
68B
7AE
7C9
792
12C
121
7FD
005
77B
7C8
0C5
03E
018
70F
06F
0FC
097
79F
758
736
7D1
0DF
020
70B
0BE
6D5
108
764
629
749
732
0D9
7FB
710
045
0BF
7A3
766
7A9
7DC
692
014
006
6F9
02F
092
0A9
00F
7DB
600
029
01C
7E8
02F
76A
079
77D
7A6
008
799
1BC
75E
04A
6B1
0FA
64F
076
5B2
03E
7FC
045
148
008
7BB
079
7E2
661
744
7B3
001
0EE
059
7EC
06A
716
7AA
0FE
78B
799
57E
023
09D
78B
0C0
002
7B3
080
683
157
029
7D6
75B
6F2
043
006
04A
0C4
7AB
775
787
10D
7C4
789
0BF
05A
014
06D
74D
71D
020
0C4
78F
7AA
04B
75D
77A
7D5
788
7F2
7EB
0FC
7D2
04C
05F
6CA
0BA
06F
73B
72C
04A
707
77B
692
05F
787
0D4
7E6
7EA
00F
051
055
024
714
75F
048
7CC
7FD
783
086
00A
7B0
04B
7BC
000
7BB
7DC
042
771
023
7F1
0DC
7B6
78D
04B
7C3
7B9
7DF
785
7E0
088
7D3
7A7
752
02E
769
03C
009
02A
027
7EB
03A
023
74E
7A9
039
0B3
7A4
03B
76D
760
045
7D6
78F
006
7F9
7F6
003
099
019
0AA
7FD
092
797
0BC
7F2
6B2
098
6DE
7D7
081
054
069
60C
0F7
70E
785
0EE
037
031
757
0C3
031
7D0
7F3
79D
798
7B6
6F8
007
705
7FD
789
002
7F9
001
796
0D2
7AD
093
747
023
717
019
0A6
70F
7DE
15D
76B
0AC
7AC
07A
058
7AE
060
054
788
7E4
002
7F4
793
040
04E
7FE
0CA
7A6
7CB
716
084
7AE
7C9
015
021
037
084
7F1
0A0
788
7CA
7B7
06D
7D5
73C
6CC
13F
018
7D4
721
04A
6FD
7E1
7FC
761
7AA
04D
044
7FA
747
06F
07E
024
7C5
7DC
7FD
0B0
7AA
758
7D8
08D
0BA
055
003
006
7A0
089
7B2
787
04F
794
79F
75E
043
02A
04E
0CA
71B
796
7F9
7C4
741
00C
779
7EB
7C0
7CC
055
030
7FB
793
081
7D3
05F
78F
09D
7A7
7B6
056
008
0BA
79E
76E
7D5
7F1
00A
7E3
7EF
7EF
7D4
7F1
07F
05D
5F4
019
784
7B4
7F2
7DC
765
07B
7A6
0B7
7C8
068
7BF
765
7E0
0B9
790
0D2
715
089
09D
006
778
7E0
7C6
0A5
7E0
06C
75A
753
023
004
77A
06E
7ED
762
065
743
08C
754
0C4
080
067
028
766
7A1
7A2
7D3
058
76D
086
03E
004
775
747
6EF
0F9
737
722
79D
7C2
084
7E3
002
028
755
7F3
003
07A
7F9
708
00C
7C9
71E
00F
7D4
7BB
0C9
085
04F
6B7
7AD
015
63C
13D
012
5F9
0E2
02C
77E
7F2
7D9
725
7BC
002
56D
036
05E
0B4
080
745
798
022
731
76C
7CE
05A
02F
013
017
707
7B1
011
015
7F8
002
00A
7DF
7D5
03B
7FD
772
04B
7D3
082
7AC
773
090
06D
7DB
0CE
7A3
00D
09B
08E
672
79E
08C
05B
7B5
7AA
7F6
011
038
000
042
747
71F
7B6
00D
7E8
7DF
0B4
73B
7D2
088
07E
00F
776
788
7CE
7C6
06C
7E1
7DE
009
7A9
7D0
6D8
7C3
726
793
03B
79A
02A
07D
724
7AE
08C
7C2
71E
041
040
046
036
79E
75C
00F
05E
751
02F
0BE
038
02F
7A2
128
78E
070
736
075
018
063
015
0CC
051
02B
7E8
73F
7AA
067
75B
05B
04F
78F
76E
7E3
0A3
7D2
00C
050
003
052
789
7DF
764
0C7
040
002
043
75F
08C
701
078
04C
7C4
0BD
7E1
7FB
7E0
790
04D
753
06B
7CD
088
05E
033
7EB
011
0B5
049
03A
78A
099
7B8
015
7EF
793
7DB
7BA
78E
02F
7DF
003
053
030
7E9
04F
084
752
7CB
005
7FC
0B4
767
0D0
7CF
0C6
005
785
779
08D
0A3
081
771
79B
7CE
05C
7D1
740
0FB
022
770
043
7AD
7CC
0E0
066
7AF
79A
7ED
7C0
7E6
067
02D
7E7
010
798
012
04E
72E
02F
771
057
7B3
03D
055
03C
7CD
79B
095
072
01B
054
01A
762
0F5
710
6DA
7EF
006
758
7BE
010
788
6A5
052
7F2
186
022
7C9
09A
08E
6B7
09D
76E
723
020
788
7F3
7D2
046
00E
6EA
0B8
020
77F
007
7C3
0B6
013
0E2
7C5
5F9
022
093
5E8
0C1
78F
7AD
053
059
056
0CC
6BE
01F
067
772
719
045
038
7CE
03F
79D
6E7
7D7
7D6
77E
062
039
7B1
03A
0B4
7C1
6A6
705
06F
7AB
7FF
7E8
7A9
03A
090
774
68F
7C8
7F5
7F5
05B
063
05D
05B
6B2
0B7
78E
048
037
066
78A
7B6
052
0DA
7DE
7E3
00B
73A
7AB
7CB
079
021
77A
00F
7AF
06F
7D5
043
7F2
7C2
03B
029
6E7
7C4
7CC
761
77A
0D1
05B
076
02F
79B
6A8
7B8
6C2
06D
05E
008
038
13D
75D
7DD
7B0
0FF
7B3
7C1
08B
026
06F
072
738
7B3
7EE
7E6
066
7BE
052
7DF
005
7CF
7B6
7F9
7F0
769
7EC
7DA
082
032
7F4
7F7
087
75C
794
772
06A
079
07F
0A2
7EC
7DB
7C4
731
7EC
77A
100
08B
0D3
01A
765
042
7AA
71B
02B
719
0BA
6B8
0D2
037
6F8
0BB
75C
00E
077
72F
00C
729
090
7F6
642
0CB
063
79B
702
021
056
086
7D8
7AA
7E6
7E9
02D
7DF
072
7EB
0A8
6E5
74B
6FC
0D3
020
6E7
7E6
7D7
06C
08E
60B
72C
7AB
0CF
73C
061
0CD
775
7E7
7BA
5ED
7BF
7F0
08D
7F4
7F2
7C9
78A
016
07E
005
781
73B
081
0D9
68D
744
06A
050
03D
753
784
660
055
7DC
7DF
7C0
798
063
063
753
02B
774
05C
014
7FD
0A7
6D0
73E
7AA
6B8
7A7
033
7F0
742
096
736
03C
79C
7B9
062
067
72D
017
076
7D4
6BA
7F5
7A3
026
06D
7C2
7A9
005
77D
070
6D5
7AB
05E
09C
075
055
78F
03C
768
7C4
061
69F
67E
7DA
731
0B5
749
09D
7EB
6E1
762
09E
6D8
782
10C
040
765
06B
70D
03C
767
025
7C2
079
7D6
7B1
727
047
6C0
081
78D
056
774
0A4
7C1
103
055
7F6
6E0
7B8
045
155
167
797
5EB
798
03E
730
02B
030

