3D0F5CFB
BE967928
BE1175EE
BE1D0904
BE6941A0
BE49828D
3CD3955C
3CBD2089
3D53FB32
3E92C50E
3EB060F9
3D2E4FE9
3E9335CC
3CE4E760
BF5D295C
3E175C14
BE81034D
BC1ECC1F
3DF97943
3D63C2ED
3E294FA9
3E2FDD80
BE94B622
3D1BFEAC
BE8EE1D2
3E7A3BE7
3E3B6ACF
BE0CF53E
BE7E48BA
3C9BCBAD
3D46513F
BE34D276
BDED18A4
BEDB44CD
3E73F959
3E90FF4B
3B59AE02
BB53F7BF
3CBE015D
BE5CCF3B
BE1B637F
BEAD9A32
3D901E3A
BF395836
3ED5051E
BDD5B3E5
3DCE4946
BE6FA437
3D9609C0
3DA17F9A
BE9D3ABD
3F07DF0A
3DBA168E
BD98FCC4
3E6047F0
3E2134C7
BE31AD53
BDA0B5DC
3DB18093
3D42A19C
BF5D7FF6
BDAB0CB2
BF2398F7
3E4011A8
3EB5C26F
3CB8156B
BDCBFFC3
BE8E4752
3EC875E4
3E2ABEC0
BDC741FC
3D8F5F6E
3D875F7A
3D4FDCC7
3E30C238
3EAA1512
BED3FF1F
3E0C57EF
3DDC0389
BEE91296
3DCB642F
3D9EC2D3
3E8D780E
BF46A735
3E8DB32D
3E77B966
BDB9BF6D
BE764478
3E762B27
BBF6566B
BE62E08B
BDAD5990
3E5CDE6E
3E2A1E05
3C45C137
BE43E97F
3E94633D
3DEED592
3CFAA4BA
BE6C7FBC
BE5F65DE
3EF56AC7
3E76D09E
BD819F9F
3DF511FC
BEBCDDA1
BE59BD37
3D8E324B
3D6DD62E
BC96E4B0
3DABB41D
BE81DDE3
3EA9954E
BEDD8113
3E9EC4E7
BF0A399C
BD104456
3D081674
BDD16D4E
3E17093D
3D0373CE
BDE41F8B
3DA77A94
3E25810C
BE83230F
3DAB00F6
BE3B480E
BDED46C5
BE258D0B
BD908E86
3E3D98C1
BC62560D
3DB96536
3E1C053E
3D9AC9D7
3D257DA5
3EA695E2
BE499DB2
BE9859B3
BE322F64
3ED9CB64
BD2D58AD
BB5860CC
BC362643
BE13AC5A
BDA0E9FE
3D6094BF
BDACF092
3B94FCE8
BEADF29D
3EE8976C
3E0277E4
3E11FF79
3EB25151
BD4057D2
BCB0F734
3DB5A8CC
BEB3C4A2
BE1D1DA5
BC82A872
BDAC0076
3E3D692E
3E0248AD
3EA0E600
BF911E5E
BE14DF1B
BF1E87C4
3EAB726E
BDDE8C00
BEA43F2E
BD8515FC
3E894F88
3DCEDF38
3D06CDE7
BE3CF284
3D0BEC71
BDAAB3EB
3E24EE03
BEA8B622
BDA6D2F0
BE321ABB
BEE52499
BD428062
3D83B063
BEBD654C
3ECCD123
BE158F5A
3E584E09
BE332996
3D2D1D3C
BE75C62C
BE00CA34
BEE3C608
BEAB767C
BEDA07F0
3F4CFBF5
3E94299C
3E91A15D
BEAE3BFA
BF121487
BF6593A6
3E5BC282
BE6BCBAD
BE1FA6BC
3E4B4EA6
3E58F71B
BF10F8B5
3E7D0FAD
3D6565EB
3E17E202
BECAC99C
BF2C2B95
BE9C7CEC
BDE08374
3EE8C6E7
BD430BA9
BE77F19E
BE9A939F
BE347FD4
3F178503
BC484730
BEB43035
BE4574F4
BCCC9D29
3EB4E0FE
BD08F5D8
BEE50BC2
3E11FF76
3E96AE84
3E5AED3C
3D67F4BB
BE9803C6
3EFD3302
BE0A4962
3E156A4C
BD849506
BE9027CA
3E5A202C
BC101DE8
BF2708C8
BD899653
3E2A83C2
BDDAE0FE
BDDD7D86
3C831CFD
3D770657
BE8512EF
BEEAA065
BE254E54
BCBC7887
3D8ECF9C
BF1CEC85
BE8EF3A7
BCAD84B3
3E79A3B4
BD8AAB49
BEA8058E
BDAD7BD8
3DDFD2EB
3EF1562A
3E584CAB
3D92F222
BE8C8AC8
BD6D4EE2
3E561078
BE810889
3D8F38BB
BE22D0E9
BDC8804B
3E21DC56
3D1CA6F3
3E0ACA21
3E91D631
BF247827
3DEBD0DB
BEEA5851
3DDD7BBD
3F1580BE
BE70D85F
BF3F4FD0
3CD7833D
3D362EA3
BE2AEE5E
BD88E9D8
BC71B0BC
3D33EE92
3D756852
BF130F26
3BAE242B
3C1772BA
3EB3D5B9
BE58F465
3CD08499
BE3E1E6A
BE36A2D4
BD44BD6F
3E5A2F93
BF0FDF6C
3EB268CA
BDC6C3E8
3EB3CA28
3E689A2A
3E038E51
3D341390
BEF61B59
BE18E15D
BC7206E3
BDA51A80
BE4839C1
3E3566C6
BC6B0A0F
3EC628D9
3ED02BB6
BF0995EB
3EA5260F
BF039BF8
3E1FC93D
BD9A9536
BDFD439E
BEA9C5CB
BF4B411E
BE284B36
3E665594
3BC6E42C
3ECFB21E
BF6E19F9
3F3CAFE9
BE833260
BD6DC80D
3E07917A
BE254D00
3F20A791
BE82DAA4
BEF9E294
BED85923
BDEE0D90
3F316FE5
BF166907
3D88C215
3E39E682
BE14E7E5
3F0BB693
BE2ED996
BE3BF12D
BE823914
3E2BB8F8
3E496B55
BEF18F5E
3DFDA0A2
BD3C57C3
BF6EC483
BDBEF9C4
BF5077B8
3D70B22B
3EADBB93
3ECCBA86
3E2F7586
BCF1608D
BC999AF1
3DA7FEE3
3E24F28E
BDFE7048
3F2ACEDC
3ECE4ACA
BEC79F46
3E8178F2
3E867EC4
BC10E041
BFBDA6A1
BE9DAF60
3ECCC63F
BE87F113
3DFF23FE
3DF5979D
3ECAD206
BDD7F82D
BE2CD0D1
3E9ABE42
BEB8B5C8
BEBAA755
3AB5EC20
BD5B6671
3E7EADE4
3E8ED51F
BEB9B2DE
3DDBF266
3D65A412
BE492989
3E75EBA3
BE467BF3
BEBE518F
BE309740
BDBC963B
3E583B96
BDC59899
BE5CB30C
BE3DE549
3E01D248
3EABD438
BE0D863D
BEE11BA1
3DD3444B
3EB6FFE7
3F00E14B
3CFE5A2D
3E49CF23
BF21EEB7
3F67A807
BEAFBBC2
BF5248CC
3ED20DBB
3EB48087
BD3E9BFD
3DBF53B3
BF40DDB0
BDD5D79B
BD876EAA
3E84CADD
3E70CB91
BE7EE627
3E66824A
3DC60CAC
BD2FEADE
BE08EF81
BE8DF41D
BD9081BF
BE68DCB0
BE858B0E
3DEE480C
3EA35FC0
BE000854
3D757C89
BD2F0691
3D406002
3D3CADA8
BE35A8F8
BE263211
3DFF12CA
BCA24C82
3D71AC92
BF1943E2
3EA86C68
3EC46E1A
3EBADC2C
3E6A0926
3F0CC63D
BF65D78E
BD2FF9EC
BF35D0AF
BEB4BEB8
3EDD9CF1
BE41D8D0
3D4029E7
3D9BF360
3C4F4F97
3DD7A90E
BCADC2C8
3D516615
BF3D91DD
3E087DA4
3E73A1C7
BC88557B
BE38B3AC
3E5DDF03
BE88650B
3E2F78A8
3E5D2530
BE32B574
3C990282
BD8840E5
3EE0DCCB
BF00CD81
BE8D1917
3E880F44
BE2C6E8D
3E5E36CA
3E7CC22C
3E339C43
3DA9565B
BE006116
3E3F85AA
BE9BC49F
BE22BB1F
3D972FF2
BD38A18A
3E1BF841
BF82C278
3DB14728
BE23F8D5
BD88BF44
3C24F520
BD2A6D84
BCBB7FD5
3DC15616
BEAC1BEE
BDBD74EE
BECC434A
3D13EC3C
3E65AA7A
3EC93B86
3E998665
BE8133C2
3D86C64D
BE469EAD
BDD53876
BE109A68
BEA6AE39
BE07055F
3D01BE14
3E8109E0
BDDD05F5
3E381A07
BE0FE408
BEB13752
3BFC1527
3E714BC9
3DCBF6FC
BBFC13F4
3D348617
BDB1C83A
3EDA22B1
3ED31F34
3EF3FDE0
BE14B530
BE8B8C7F
BE7F2629
BEF4D386
3EAB8C0F
BE0B55AE
BF249A0E
3E8CF204
3D81947E
3E49B396
3D8E3BDC
BDD0D5F2
BD65B69B
3E9B8CE8
BCBB4E4F
BD8E7CB7
3DAC97F1
BE13C82A
BF3A09A7
BE224DA9
BDDB6D97
BE5B3880
3F1667BF
3F1089CF
BB9B0D2E
3C39A04A
BE842C87
BDDCEB10
3EC57F15
3DFB1E8D
3D410C4A
BEF06841
3E5EEC49
3EFCA60E
3E97B79B
BE40E364
BEA71D1A
BEC92F5D
BDBB7FA0
3EDFB914
3D812395
BEF4B802
3EBE77EC
BF1540D4
3F0463A7
BE9BA003
BF6B1E68
BEB664E1
BECDBE6D
3ED9C551
BC19435C
BEEF70ED
3E0AD3AE
3EBF2334
BE38277C
BE99C3A1
BE2CCA95
BD8D69A1
BF36BE71
3D241095
3C53ADA6
BF0303E3
3DBFFDE4
3E92016D
3EA9DDAE
3CFB1B03
BD90C6A3
BF7FBB52
3DA6279F
3D664E15
BD3A4D14
3DBE430D
BE951F11
3E729F9E
BE82F814
BE322EFE
3C8E4175
BE4D39FB
3F5E533C
BEA1EB31
3E145E91
BF277763
3EFA266E
BF58469D
3E6D76E8
BF937138
3DF92A58
BBCED329
3E0BD4C8
3F245A81
3C8E6B5E
BE09932F
3E737F7C
BD6987C8
BF4F2F99
BEBB0EB1
BE183501
3B109FDA
3EEE0C86
3E32D511
BD1CA6B6
3E5456EC
BEE9E938
BE2B4F46
3EFEE939
BE68D031
BE4C2514
BFA05F74
3D8C6704
3E9D3A77
BE689B86
3EC0D237
3BA57651
BE1804C7
3E80B8CF
BF3E42B5
3F2BA94F
3DA4B2A0
BDA51755
BEA442A0
BF06A50C
3E07CEE1
3C5A3F2B
3E14AE96
3EC4CB8E
BE28AAE1
BE8A7C84
BE71E9FD
3F06D7A8
BDEC0A05
BE6C73E9
3EBF3FEB
3E34BED1
3D21942F
3E5AB7F0
BEB29524
BEE2ADE4
3D81890B
3EC4E012
BE61F23F
BE2B19AB
3E167F8C
BEA27043
BE8545EA
BDABB5A0
BE6F9281
BCD98F21
BD2704C4
3EFC713C
BDB69649
3E189582
3E3F301B
BF1A8F16
3EBA2859
3E5FE353
BEC40412
BED35A69
3E148AB2
BEF84F23
BE843176
BF36B5EB
3E3FF251
BE71BA8E
3ED404C0
BD4E86B6
BD2B7C9A
3CFC1322
3E22A12A
3E2BF5EB
3D90264A
BEEBB30F
BEA019D7
3E11C64D
BDCEA2CB
BBAF0D13
BE798522
3E86CC91
3CA44B3C
BE1FD6E8
3E166F72
BE068373
3AD08F28
BE09CD86
BD8E489E
3E04F4E2
BE8ECBA1
3D8E8728
BCE028B5
3EDCD25B
BE13E040
BE6468A4
3E16003C
BDF303A7
BE0DAC10
BD8191C9
BE74A564
BD7D96B3
3E88D284
BDB0593F
BE307F01
BEADF6C8
3DBAD574
BE969E6D
3DF3DF34
3C921A60
3DA936F8
3D9F8DD2
BD20E6C5
3DE9794B
3D8C7503
BEB15131
BE2D015B
3DE4857D
3EB3561D
BE371642
3DEFDEAF
BE92A331
BE9F06D2
3E0AA64E
BDA4C47E
BE61F51F
3C4D818A
BC5FA477
BC9BD235
3BE6B2ED
3E99562A
3D4AAE12
3EAAFCFE
BB95A25C
3E92CF7B
BE514052
3EBC575D
BCD34889
BF26AB2C
3E98ED15
BF10BC1B
BDA16D47
3E818A7F
3E2858CC
3E52384A
BF79A86D
3EF79D77
BEF18F03
BE7523CC
3EEEDDC5
3DDE3F7C
3DC70302
BEA81D75
3EC3B721
3DC5B02D
BDBE511F
BCC02601
BE44254F
BE4E084F
BE139280
BF039AED
3C66BF34
BEFAC1B3
BBA8BEAA
BE6CB1A5
3BA0B8E1
BC46BE78
3B5E5272
BE52E249
3ED23BAF
BE244D61
3E9394FF
BEB8E69B
3D8EA34C
BEE80FB0
3D4C6D05
3EA60E70
BEF0A530
BD85BCA7
3F2EE879
BE94EFD0
3EACB4EB
BE275808
3E74DBCE
3E30C036
BE2248A2
3E41C4E7
3E28250B
BE6FF20E
BD5F587F
3BB82702
BCBDE58C
BE582686
3E01BF25
3E1C3251
BB4E48FE
3ECA3876
BE3365B7
BDD22D39
BEE92EEC
3E84ABD9
BE225F8F
BDD85EC3
3D2C4E34
3D860522
3DDD3C4E
3E84F4A2
BCEB7E76
3EA0D34D
BE6ED424
BDD4A9C7
BE10F19A
3E5AD2DF
BDA910B3
BEC3B6A4
BF19C3E0
3F1F8869
3D41982F
BDAD310B
BEDEB814
3E15BBA2
BF017158
BD76D037
BBF5C72D
BE9E0435
BE2BC237
3E1B9928
3E089C7E
BC33A7A1
BEB8206B
3E5F564F
3E7D2F7E
3D9344E0
BDE804A0
BD8F710F
BBA889AD
3EB05AF9
BE2B7333
BEA7183C
BD9D3CC0
3E8D32EC
3EBAC106
3E2A5311
3BC5789A
3C540524
BE3EA384
3E89B45A
BE1BAC9E
BE71E1C2
3E1E8730
BE56FFF3
BE405E5A
BEA13838
3E07B7AF
3DAAC4EC
3E1DCC0A
3ECA17D8
BEE488FF
BE52AF7A
BC5BE776
BDED8F8B
BEBE5ECF
3CCEE51F
BE8620CD
BD20ACA5
BDFC5DEE
BDCDEEB1
3E2BABDA
3DC2EE59
BC03D9CF
BE58660B
3E81BB14
BDB22B06
3E3EDE56
BE60DEBF
3E9D466D
BE31B339
BE120B34
3E2C99C2
3C8B3FC2
3EBABC4D
BE42CD35
BE9145E5
BDA8586B
BCE9C80B
3CAFDAEA
BD66369A
BD03ED6D
BD003A40
BDAC5E33
BCECDF73
3E7F4DD2
3E3ABA32
BF82F6E5
3D4F7E18
BE771FC6
BE1683EF
BCD6C263
BD8E2F05
BE9A3874
3E76E043
BE337109
3EB760A3
BDDE04EA
3E50D43D
BE016EAA
BE9A2794
BD7A86AA
3EB99987
BE5E54D1
3ED2C0B3
BEEA4B34
3E894D3A
3E9DCFEE
3C4E40A4
BE8768E5
BD7BC783
BDE61448
3EA57840
BD7F34CF
3E5893AC
BEA5F70C
BEAC49AC
3D8D496A
3C0FAB30
BE8572E1
3E5CFDFC
BD178978
BE9D9817
3E4BC5F5
BEBC60BE
3E8CA184
BEAB8077
3EC42BA4
3E805324
3E4E2AD4
3DA207B7
BE99FE7E
BE3DEBC4
BE3A6B3F
BDB24FAC
3E309821
BE925062
3E86315F
3DF8B0D1
3C14210D
BE8AD878
BEB8199B
BF0813E3
3EF9CFBB
BEC89E75
BEDD00FE
BE452B2A
BDF7F956
3E846E22
BD67F76C
3BB6BAA3
3DA1F711
BEAAC860
BCC00AB2
3BD4AFD6
3E750FBC
BC400FC2
BEF7B22E
3CC6B006
BDD9BEB8
BEE13C3A
3CF81F4B
BDACD3BE
BE08EFB7
3EC9B28D
3E8527F8
3E1EFFB8
BF246460
BE25C5BD
3D2E537C
BF619888
3F1EFE24
3D1413E9
BF81916C
3EE2BA96
3DB21D02
BE81ED97
BCDCE607
BD99691E
BEDAD80E
BE066D30
3BBB5DF4
BFA48BA3
3DDB6109
3E3C4448
3EB46A9A
3E803849
BEBA9FBC
BE4E95C9
3D8993AF
BECE0C48
BE932C41
BDC56967
3E342BC4
3DBC93AD
3D1A6144
3D3849C7
BEF8C658
BE1DB179
3D08A4AB
3D2C315F
BC6A93CC
3BAB4D7B
3CA39026
BD836875
BDAB212D
3DEFA76D
BBBE89C4
BE8D76DD
3E175389
BDB02FA9
3E82E366
BE264EAE
BE8CC18A
3E9066C4
3E5BCDF6
BD93E998
3ECE855A
BE399AC6
3CD65651
3E9BFB2A
3E8E8469
BF46F164
BE42EC7D
3E8C0D21
3E362C27
BE14FE37
BE2B9FF6
BC9B3508
3D089D17
3DE1100E
3AD7A9DA
3E041BAA
BEB8ED76
BEE068D5
BE12A813
3CDA1751
BD3EA26E
BD8234B6
3EB4F997
BEC43DED
BDB50BB5
3E88DEF9
3E7D2D37
3CF674FB
BE890CE2
BE6E1D8C
BDC48E82
BDE6D459
3E58D292
BD7636B1
BD857AC4
3C94BE31
BE2D2B24
BDBF0B64
BF13C5D3
BDF1ED8D
BED90D41
BE59594C
3DEEAC8F
BE4AD059
3DA9F73E
3E7A03B3
BEDBA52E
BE2357AB
3E8C73AF
BDF44FE9
BEE11D03
3E0295F9
3E004B3F
3E0C7859
3DDB8048
BE426F72
BEA3DD72
3CF027F9
3E3CD8D1
BEAE6243
3DBE1D32
3EBE0DC7
3DE2DE46
3DBDD9F5
BE3A4DD6
3F144BEC
BE63543A
3E61ADF6
BEC9E9A2
3E6AE5AB
3D41786B
3E46ABB4
3D2D3DDB
3ECCE2E2
3E230C86
3DACFDD9
BD3F0F5E
BEC0B070
BE2A703F
3E4FED95
BEA4E8C5
3E372421
3E1EB5DB
BE618E99
BE917537
BD6087AD
3EA3F19C
BDB6775B
3CCCC487
3E208A45
3BD39683
3E25475F
BE6CF970
BD809B50
BE9B3179
3EC7A763
3E0107F0
3B91E1F9
3E066F02
BEA07D78
3E8C170C
BEFE0FC3
3E718690
3E192442
BDECCEF4
3EBD8CA5
BD747AB1
BC07E120
BD7CD91B
BE5FFD46
3E1AE217
BEAC9C5C
3E575795
BDC83156
3E88EF8D
3E3D3BB0
3DCC9D8F
BD26C74F
3D0901C2
3EB59BE6
3E129DDA
3DE95EFE
BE6A88A7
3E996CB9
BE0F1D7B
3D2E443F
BD07B8BB
BE58399A
BD93834D
BE0B29D1
BE629613
3DBD2EAE
BD819A74
3BD8C074
3E274E2B
3DC025A4
BD3614BD
3E1FABBA
3E847FB6
BEADABA5
BDD26C81
3C311553
BBD461C8
3EB463BA
BE986907
3ED0A848
BDC11D12
3EC6CE15
3C39A144
BE746A49
BE86787C
3E8DB494
3EA31276
3E81A0B2
BE8EC209
BE486A08
BDC677C0
3E387550
BDB975DF
BEBFC191
3EFBCAE6
3D8A872E
BE8F8974
3E079304
BE247EA9
BDCF7A70
3EE0D6F4
3E4C6440
BE200135
BE4A01AE
BD149247
BDFEED47
BD48FDE0
3E4EFAC4
3DB7FFDE
BD41DEA2
3D02C656
BE4FC6BB
3D132CA3
3E1D8EEB
BED1DA4A
3DBF5028
BE8E7858
3E2E632C
BE18C8F2
3DF6652B
3E2A5235
3DF16AC6
BDCB7C64
BE48AC45
3E95BA38
3E64DBAD
3D592755
3E290674
3D506DBA
BE9D4B3A
3EF552EE
BEEFD06B
BF12E1D0
BD016785
3C5B5448
BEA7A6F1
BE023295
3D07E4D2
BE6EA115
BF2D14F6
3E24AE50
BCD9DE67
3F43132C
3D896611
BDD8B373
3E9A98F6
3E8E0A79
BF24080B
3E9DAC13
BE917CDD
BEDCC6FB
3D827D5C
BE6E0455
BCCC761A
BDB50833
3E0D82F6
3CE3C981
BF0ACCD3
3EB8E402
3D819CB4
BE809D77
3C6210DA
BDF05646
3EB64B07
3D1CA746
3EE21357
BDE9F73C
BF819E8F
3D8A7A88
3E9353BA
BF85EF02
3EC18F01
BE61A40B
BE24911E
3E2688F0
3E3392C6
3E2C5268
3ECC2BEB
BF20A771
3D7E1376
3E4F5A82
BE8D1250
BEE6E195
3E0B77A8
3DE08C7F
BDC68DBA
3DFD7BEA
BE446480
BF0C5CA4
BDA099FF
BDA5F2E6
BE811F1A
3E452E0A
3DE5B6F7
BE1C0A4E
3DE8C2A9
3EB4FAF5
BDFBD95B
BF2CDAFD
BEFA8538
3E5F7C05
BE28C449
BA2FA620
BD3FAC29
BE2C1384
3DEB64BB
3E902E1C
BE8BD7ED
BF385F78
BDDF3093
BCA269E2
BCA11BE2
3E3687CE
3E46569F
3E3A7A70
3E37EF9F
BF26826D
3EB727EC
BE62EBA3
3E11DB39
3DDD0982
3E4C069B
BE6B7D2F
BE1382E1
3E2431CA
3EDAC8C5
BD85838E
BD652FBC
3CB471E7
BEC5C70F
BE283972
BDD1269B
3E723357
3D843F26
BE85DBD6
3CFFC6A2
BE211B8F
3E5FDB65
BDA8B120
3E06D10F
BCD651F4
BDF45F2F
3DEFA7FE
3DA776E4
BF0C4EC4
BDECEAB9
BDCCEAC7
BE9EB445
BE857D63
3ED17C80
3E372ABB
3E6C41F0
3DBF270B
BE48D12A
BF2BF1F4
BE0E4B1F
BF1E9A99
3E5AC958
3E3C38DB
3C8B01E5
3DE1988F
3F1E9A3B
BEA23DBD
BD8B3D2B
BE1E5351
3EFFA7F0
BE19F543
BDFB620F
3E8B9BA9
3D997D05
3E5FF8D8
3E645C88
BEC74EC7
BE18B2F0
BD0EFF0C
BD4A7E1A
3E4C9395
BE03FB47
3E24E410
BD83C7C4
3C23BC4C
BDC1F029
BE13CF46
BC45C180
BCFE5981
BE968759
BD19E753
BD962485
3E82FF9C
3DC9B26E
BCBA606D
BC8AE7A6
3E879E73
BEA317E8
BE572BF1
BE8D558A
3E551CD6
3E73927E
3E7F8F1E
3EA2D5BC
BD19F2FC
BD9357C3
BDEE9874
BECE6F2A
BD1F0A0A
BE85BF76
3F006E33
3E8BF41A
3ED35F31
3D526125
BE9A86B4
3E040313
BE2A40A6
BEE4EFD3
3DAE4A8D
BEE6055B
3EBAD341
BF23A271
3ED2B01B
3DDC314F
BF03C271
3EBB70E8
BEA33E85
3CE1D2FF
3E6F79AD
BED04DC6
3CC94363
BED6F70C
3E905703
BC9D2403
BF5EA03D
3ECB6550
3E461CEC
BE492920
BEFD0692
3D85EE2E
3E2D554D
3E86D90F
BD9D6B3A
BE2BD2F7
BD4B8E8E
BD32F813
3DB77E07
BD802201
3E651D44
BD2343D2
3EA81F44
BF0D2455
BEB4F5B3
BF01CE33
3ED31BE9
3D838A4B
BF0C3AA5
BD4B8803
BDA2226F
3E5939B4
3E8E410A
BF7A18AD
BED3E078
BE293012
3ECFF196
BEC39AA5
3E422B3E
3ECD5F91
BE8A9088
BD426917
BE0AAA21
BF84A501
BE00E129
BCF7ED28
3E8D63DA
BCB822DC
BCD1E0E9
BDDA6F50
BE6A8F2E
3D34AE6B
3E7CD211
3C2768DD
BE7DEAD6
BEC45068
3E81456A
3ED9FC04
BF390994
BEBB017B
3E555416
3E21D181
3DF7E9D2
BEAC4919
BE7715BA
BF4F918E
3E2AB296
BD8E2EC6
BD80D026
BDFEEE2B
BE4F044E
3E479CBD
3E46C623
BEACDFA0
3DAEA93A
BE8B635A
3E38F732
3D2415A6
BBB1DBF0
3EA70AF3
BF17A5E7
BEC1DB09
BE2BEB24
BF23B084
BE31FB23
3DCD642B
BCF94D27
BEBDE643
3E96CD41
BEC98082
3DF053CB
BE47EA22
BE0C7E4A
3E4540B0
3E4E53E2
BED2166E
3D3F6AD9
3E6C3CF1
BDAE4994
BF22A93F
BCA1BC73
BE383550
3D9A8614
3E5A0FEA
BDF68E06
BE2DA4FD
3C362093
BE821405
3E61E378
BF15393F
BE299D85
3E3DDDD9
3E9C24B8
3E6B54DF
3E2BF1E6
BE61A99C
3DF3A487
BE9772BA
BDEF24ED
3E4204CF
BF307C64
BF40EC56
BD97B56B
BECE270A
3EB5A68D
BEB61452
3E9DAD95
BD22B5BC
BF0F7CA5
BE9D9C84
3E9E9DA9
BF139CD0
BE7BF339
3F066AF6
3E01A005
BE9A4775
3E577FCA
BEF23BE2
3DF15375
BE989A05
3D95F7C4
BDF4576E
3E72F50A
BDA458AC
BE1C76AB
BED87B8D
3E0EECB7
BF1FDA21
3E816503
BE6411CC
3E2D505E
BE8B1487
3EA474A3
BDF92311
3F01B145
3E2A1189
BC91E55F
BF0FC0C1
BE0EE003
3E0BBE89
3F2AFD11
3F33F784
BE51C4EF
BF850423
BE4F112F
3DFABDE7
BECFB894
3DAED0EC
3DC0D2AF

