008
3B4
3DB
3D8
3C5
3CD
006
005
00D
049
058
00A
049
007
322
025
3BF
3FD
01F
00E
02A
02B
3B5
009
3B8
03E
02E
3DC
3C0
004
00C
3D2
3E2
392
03C
048
000
3FF
005
3C8
3D9
3A9
012
346
06A
3E5
019
3C4
012
014
3B1
087
017
3EC
038
028
3D3
3EB
016
00C
322
3EA
35C
030
05A
005
3E6
3B8
064
02A
3E7
011
010
00C
02C
055
396
023
01B
38B
019
013
046
339
046
03D
3E8
3C2
03D
3FE
3C7
3EA
037
02A
003
3CF
04A
01D
007
3C4
3C8
07A
03D
3EF
01E
3A1
3C9
011
00E
3FB
015
3BF
054
391
04F
375
3F6
008
3E5
025
008
3E3
014
029
3BE
015
3D1
3E2
3D6
3ED
02F
3FC
017
027
013
00A
053
3CD
3B3
3D3
06C
3F5
3FF
3FD
3DB
3EB
00E
3EA
001
3A9
074
020
024
059
3F3
3FA
016
3A6
3D8
3FB
3EA
02F
020
050
2DD
3DA
361
055
3E4
3AD
3EF
044
019
008
3D0
008
3EA
029
3AB
3EB
3D3
38D
3F3
010
3A1
066
3DA
036
3D3
00A
3C2
3DF
38E
3AA
392
0CC
04A
048
3A8
36D
31A
036
3C5
3D8
032
036
36F
03F
00E
025
39A
353
3B1
3E3
074
3F3
3C2
3B2
3D2
097
3FC
3A5
3CE
3F9
05A
3F7
38D
024
04B
036
00E
3B3
07E
3DD
025
3EF
3B7
036
3FD
358
3EE
02A
3E4
3E4
004
00F
3BD
38A
3D6
3FA
011
363
3B8
3FA
03E
3EE
3AB
3EA
01B
078
036
012
3B9
3F1
035
3BF
011
3D7
3E6
028
009
022
048
35B
01D
38A
01B
095
3C3
340
006
00B
3D5
3EE
3FC
00B
00F
36C
001
002
059
3C9
006
3D0
3D2
3F3
036
370
059
3E7
059
03A
020
00B
384
3D9
3FC
3EB
3CD
02D
3FC
063
068
376
052
37C
027
3EC
3E0
3AB
334
3D5
039
001
067
311
0BC
3BE
3F1
021
3D6
0A0
3BE
383
393
3E2
0B1
369
011
02E
3DA
08B
3D4
3D1
3BE
02A
032
387
01F
3F4
311
3E8
32F
00F
056
066
02B
3F8
3FB
014
029
3E0
0AA
067
39C
040
043
3FD
284
3B1
066
3BC
01F
01E
065
3E5
3D4
04D
3A3
3A2
000
3F2
03F
047
3A3
01B
00E
3CD
03D
3CE
3A0
3D3
3E8
036
3E7
3C8
3D0
020
055
3DC
38F
01A
05B
080
007
032
35E
0E7
3A8
32D
069
05A
3F4
017
33F
3E5
3EF
042
03C
3C0
039
018
3F5
3DD
3B9
3ED
3C5
3BD
01D
051
3DF
00F
3F5
00C
00B
3D2
3D6
01F
3FA
00F
366
054
062
05D
03A
08C
31A
3F5
34A
3A5
06E
3CF
00C
013
003
01A
3FA
00D
342
022
03C
3FB
3D1
037
3BB
02B
037
3D3
004
3EE
070
37F
3B9
044
3D4
037
03F
02C
015
3DF
02F
3B2
3D7
012
3F4
026
2FA
016
3D7
3EE
002
3F5
3FA
018
3A9
3E8
399
009
039
064
04C
3BF
010
3CE
3E5
3DB
3AC
3DE
008
040
3E4
02E
3DC
3A7
001
03C
019
3FE
00B
3E9
06D
069
079
3DA
3BA
3C0
385
055
3DD
35B
046
010
032
011
3E5
3F1
04D
3FA
3EE
015
3DB
345
3D7
3E4
3C9
096
090
3FE
002
3BD
3E4
062
01F
00C
387
037
07E
04B
3CF
3AC
39B
3E8
06F
010
385
05F
36A
084
3B2
314
3A4
399
06C
3FD
388
022
05F
3D1
3B3
3D4
3EE
349
00A
003
37C
017
049
054
007
3ED
300
014
00E
3F4
017
3B5
03C
3BE
3D3
004
3CC
0DE
3AF
025
358
07D
327
03B
2D9
01F
3FE
022
0A4
004
3DD
03C
3F1
330
3A2
3D9
000
077
02C
3F6
035
38B
3D5
07F
3C5
3CC
2BF
011
04E
3C5
060
001
3D9
040
341
0AB
014
3EB
3AD
379
021
003
025
062
3D5
3BA
3C3
086
3E2
3C4
05F
02D
00A
036
3A6
38E
010
062
3C7
3D5
025
3AE
3BD
3EA
3C4
3F9
3F5
07E
3E9
026
02F
365
05D
037
39D
396
025
383
3BD
349
02F
3C3
06A
3F3
3F5
007
028
02A
012
38A
3AF
024
3E6
3FE
3C1
043
005
3D8
025
3DE
000
3DD
3EE
021
3B8
011
3F8
06E
3DB
3C6
025
3E1
3DC
3EF
3C2
3F0
044
3E9
3D3
3A9
017
3B4
01E
004
015
013
3F5
01D
011
3A7
3D4
01C
059
3D2
01D
3B6
3B0
022
3EB
3C7
003
3FC
3FB
001
04C
00C
055
3FE
049
3CB
05E
3F9
359
04C
36F
3EB
040
02A
034
306
07B
387
3C2
077
01B
018
3AB
061
018
3E8
3F9
3CE
3CC
3DB
37C
003
382
3FE
3C4
001
3FC
000
3CB
069
3D6
049
3A3
011
38B
00C
053
387
3EF
0AE
3B5
056
3D6
03D
02C
3D7
030
02A
3C4
3F2
001
3FA
3C9
020
027
3FF
065
3D3
3E5
38B
042
3D7
3E4
00A
010
01B
042
3F8
050
3C4
3E5
3DB
036
3EA
39E
366
09F
00C
3EA
390
025
37E
3F0
3FE
3B0
3D5
026
022
3FD
3A3
037
03F
012
3E2
3EE
3FE
058
3D5
3AC
3EC
046
05D
02A
001
003
3D0
044
3D9
3C3
027
3CA
3CF
3AF
021
015
027
065
38D
3CB
3FC
3E2
3A0
006
3BC
3F5
3E0
3E6
02A
018
3FD
3C9
040
3E9
02F
3C7
04E
3D3
3DB
02B
004
05D
3CF
3B7
3EA
3F8
005
3F1
3F7
3F7
3EA
3F8
03F
02E
2FA
00C
3C2
3DA
3F9
3EE
3B2
03D
3D3
05B
3E4
034
3DF
3B2
3F0
05C
3C8
069
38A
044
04E
003
3BC
3F0
3E3
052
3F0
036
3AD
3A9
011
002
3BD
037
3F6
3B1
032
3A1
046
3AA
062
040
033
014
3B3
3D0
3D1
3E9
02C
3B6
043
01F
002
3BA
3A3
377
07C
39B
391
3CE
3E1
042
3F1
001
014
3AA
3F9
001
03D
3FC
384
006
3E4
38F
007
3EA
3DD
064
042
027
35B
3D6
00A
31E
09E
009
2FC
071
016
3BF
3F9
3EC
392
3DE
001
2B6
01B
02F
05A
040
3A2
3CC
011
398
3B6
3E7
02D
017
009
00B
383
3D8
008
00A
3FC
001
005
3EF
3EA
01D
3FE
3B9
025
3E9
041
3D6
3B9
048
036
3ED
067
3D1
006
04D
047
339
3CF
046
02D
3DA
3D5
3FB
008
01C
000
021
3A3
38F
3DB
006
3F4
3EF
05A
39D
3E9
044
03F
007
3BB
3C4
3E7
3E3
036
3F0
3EF
004
3D4
3E8
36C
3E1
393
3C9
01D
3CD
015
03E
392
3D7
046
3E1
38F
020
020
023
01B
3CF
3AE
007
02F
3A8
017
05F
01C
017
3D1
094
3C7
038
39B
03A
00C
031
00A
066
028
015
3F4
39F
3D5
033
3AD
02D
027
3C7
3B7
3F1
051
3E9
006
028
001
029
3C4
3EF
3B2
063
020
001
021
3AF
046
380
03C
026
3E2
05E
3F0
3FD
3F0
3C8
026
3A9
035
3E6
044
02F
019
3F5
008
05A
024
01D
3C5
04C
3DC
00A
3F7
3C9
3ED
3DD
3C7
017
3EF
001
029
018
3F4
027
042
3A9
3E5
002
3FE
05A
3B3
068
3E7
063
002
3C2
3BC
046
051
040
3B8
3CD
3E7
02E
3E8
3A0
07D
011
3B8
021
3D6
3E6
070
033
3D7
3CD
3F6
3E0
3F3
033
016
3F3
008
3CC
009
027
397
017
3B8
02B
3D9
01E
02A
01E
3E6
3CD
04A
039
00D
02A
00D
3B1
07A
388
36D
3F7
003
3AC
3DF
008
3C4
352
029
3F9
0C3
011
3E4
04D
047
35B
04E
3B7
391
010
3C4
3F9
3E9
023
007
375
05C
010
3BF
003
3E1
05B
009
071
3E2
2FC
011
049
2F4
060
3C7
3D6
029
02C
02B
066
35F
00F
033
3B9
38C
022
01C
3E7
01F
3CE
373
3EB
3EB
3BF
031
01C
3D8
01D
05A
3E0
353
382
037
3D5
3FF
3F4
3D4
01D
048
3BA
347
3E4
3FA
3FA
02D
031
02E
02D
359
05B
3C7
024
01B
033
3C5
3DB
029
06D
3EF
3F1
005
39D
3D5
3E5
03C
010
3BD
007
3D7
037
3EA
021
3F9
3E1
01D
014
373
3E2
3E6
3B0
3BD
068
02D
03B
017
3CD
354
3DC
361
036
02F
004
01C
09E
3AE
3EE
3D8
07F
3D9
3E0
045
013
037
039
39C
3D9
3F7
3F3
033
3DF
029
3EF
002
3E7
3DB
3FC
3F8
3B4
3F6
3ED
041
019
3FA
3FB
043
3AE
3CA
3B9
035
03C
03F
051
3F6
3ED
3E2
398
3F6
3BD
080
045
069
00D
3B2
021
3D5
38D
015
38C
05D
35C
069
01B
37C
05D
3AE
007
03B
397
006
394
048
3FB
321
065
031
3CD
381
010
02B
043
3EC
3D5
3F3
3F4
016
3EF
039
3F5
054
372
3A5
37E
069
010
373
3F3
3EB
036
047
305
396
3D5
067
39E
030
066
3BA
3F3
3DD
2F6
3DF
3F8
046
3FA
3F9
3E4
3C5
00B
03F
002
3C0
39D
040
06C
346
3A2
035
028
01E
3A9
3C2
330
02A
3EE
3EF
3E0
3CC
031
031
3A9
015
3BA
02E
00A
3FE
053
368
39F
3D5
35C
3D3
019
3F8
3A1
04B
39B
01E
3CE
3DC
031
033
396
00B
03B
3EA
35D
3FA
3D1
013
036
3E1
3D4
002
3BE
038
36A
3D5
02F
04E
03A
02A
3C7
01E
3B4
3E2
030
34F
33F
3ED
398
05A
3A4
04E
3F5
370
3B1
04F
36C
3C1
086
020
3B2
035
386
01E
3B3
012
3E1
03C
3EB
3D8
393
023
360
040
3C6
02B
3BA
052
3E0
081
02A
3FB
370
3DC
022
0AA
0B3
3CB
2F5
3CC
01F
398
015
018

